BC6F8A92
3DCEB2A8
BE174CD0
3DF02A82
3C94771B
BC346FA9
BD2B9801
3DFDDF35
3E09F0A0
BD00B6A4
3E0F8AA0
3E27887D
BCE414CD
3E17F302
BE46FD00
3CF5BF5F
BD8742AA
3DFEB45A
3E4D4EDE
BDBF8216
BDAA2061
BF6281E8
BE77B7F4
3E515738
3CDFF904
3DEE19E9
3E0B984A
BDAAF428
BDFDC217
3CC46433
3E208D43
BE0D86D2
BDDBB710
3D878057
B9CFB50A
3D647E34
3E1DA039
3B006947
3D354B0E
BC9C819B
3E5AFFAD
3D8688EE
3DF09570
3D4A12FE
BE003FB5
3E0F2821
3A945BED
3E00BEDE
3E4ADF52
BD5060BB
3B8E54C2
3E2C965C
BE201122
BD121500
3E6911D5
BE1D3F15
3D784E38
BC1650C5
3D48648B
3E5777E3
BE272173
BC548A10
3D49F630
BD67D603
3DE6E2CB
3DA6ED1A
BCDA4190
3D7D828A
3D526301
3D55A72C
3DB1A561
3DB1D498
3CBD6F2C
3E326CA7
3E211811
3C737F7F
BD85AF7A
BD9803F5
BDE83B18
3E2EEAE3
3E103F54
3E12695C
BD39FE9C
3E192456
3DDC1683
BD90762E
BE2027C7
BE3BDDA2
3E5522FA
3DC177E6
3E57084F
3DE44279
3DA8477E
3DF426DC
3E490CE2
BE095698
3DB05EBA
BE0664BA
BDB73349
3D8A2FB1

