BE0C8B65
3C4856B1
BC256F46
BD65600C
BD9DD711
3CACE2B2
BE6EE09F
3DA712A4
3D09F31B
3E1E02C8
BE2CCD5E
3DF4C9EB
3E3520A9
3DB67EE2
BD9B5152
3E04F7E0
BE068FA0
BE48E0F9
3D92C6D4
BE281B19
3E4E8F1B
3E3AC8BD
BCB05406
3AD7A5C4
3E4FDDEC
BE1B6A10
BE12CD5B
3E7E1F99
3DDE1B63
3D3E668B
BD6C2E97
3DEBECFA
3DC2F483
3DDCA3F3
BBF1A6A1
3D549C19
3F19CA59
BDC69829
3E0F02FA
BE161430
BDFC64AF
3DBA3754
3E261DD2
3D348876
BE99C998
3E421565
3D9AEFE7
3C8767BE
3E10114F
3E2F40A2
3D85EC26
BDC7975A
3DCA0991
BD8190E4
BA3CB7AC
3DC2FB2F
3C7A4ED1
3DD14518
3C16C57F
BD97B606
BE4CE436
3D1E77E3
BD1D644F
BE1F9108
3BE41EA3
3E24F4B1
BCA0695C
3D7F3B37
BD7FD4C2
3E42A463
3C9858DD
BDFC2D79
3E7726B1
BC974DAA
3CCC1019
BE5C5558
3D0861B9
3E361389
BD9DC813
3E4BD2E9
BC1315FD
BE11B87E
3CC86B19
BE5AB8A2
3D0AB0D1
3CD43653
BCCBC98D
BD294EE9
BBFF254F
BD98CE4D
BD8FA635
3E0C75EA
BDE4DA87
3CF472B9
3E1EE096
BE43B771
BCDCFC3A
BE1EF632
3D6A32F7
BE5B3F0E

