3E2EFC66
BE2EDCB4
BE0C8B65
BC6F8A92
3D7DAE57
3CE1BE61
BD0E7B00
3E419194
3C4856B1
3DCEB2A8
3E77F095
BE1159ED
BD917BDD
3E0F5C33
BC256F46
BE174CD0
3DD35AAC
3E0BA801
BD99C6EF
3DBBF672
BD65600C
3DF02A82
3E20E13A
BD5578FB
BE2A1F0E
BDE823A9
BD9DD711
3C94771B
BCFD8C5D
3E00E792
BCCF1074
3DC8585D
3CACE2B2
BC346FA9
BDFAA8A5
BDC5111D
3E6B9B40
3E058842
BE6EE09F
BD2B9801
BE5B4970
BB957674
3D60A0B7
3D28B9FE
3DA712A4
3DFDDF35
3E4BF8A0
BDDCA9C3
3DD2C946
3D8CA202
3D09F31B
3E09F0A0
BE0A5629
BAFA615B
3E3D332E
3CB051D7
3E1E02C8
BD00B6A4
BD4A2C16
BE2A280F
BC8DDADF
BD9A695F
BE2CCD5E
3E0F8AA0
3E5148FC
BD027779
BD6438D2
BDB5EFC4
3DF4C9EB
3E27887D
BD283945
BDA99C32
BE22A868
3E31788E
3E3520A9
BCE414CD
BE7261B4
BD82F82C
3DD62B96
BD811A1C
3DB67EE2
3E17F302
3D457159
BDB15365
3ECB0526
BDB3B1B9
BD9B5152
BE46FD00
3D8BAD5C
BCC98153
BDD248D4
3D7B682E
3E04F7E0
3CF5BF5F
BE1E3A5C
BDEE4BAD
3E1781E4
BD14955E
BE068FA0
BD8742AA
3DA699D8
BE074CD3
3C8A90FE
BE5952BE
BE48E0F9
3DFEB45A
BD7F4D02
BD89E487
3C6576D2
3AFBF707
3D92C6D4
3E4D4EDE
BE408C6C
3DFF2E83
3B80AA1F
3E24CDDF
BE281B19
BDBF8216
BC858235
3D886D2D
BC96826E
3D64F68F
3E3C016C
3E4B1823
BDD089BF
3E55C0D1
3E152837
3E4DD551
3E61EC5E
3D5621D3
BDCDD139
BDB47AF8
BE0CFCBD
BE0C6CC1
BD17B231
BD16D8F8
3E354080
BDCF6800
3CEFBB6A
BDC2751F
BBBFEA10
BDAE476A
BDF3F9E0
3F5521DC
3DCA26C6
3E068631
3BB8DAD2
BD3D6AEA
BD1522E5
BE25C036
3E0D1A96
3DBD1AD0
BE02FD9A
3C9CD523
BE2DACEB
BDAD1AF6
3CEEBCA7
BBEA145B
3E32D6C5
BB146C5E
3DC0F517
3E484180
BE2D9D5D
3D9049C0
3E80F7D4
3D8994BD
3E33CE07
BD8519A8
BE308A5B
BDB1AED8
BDF1C4EB
BE2F164D
3E1B3BC7
3E3426B5
3D2574CC
3D21C7BE
BD8D8CE9
BDED191E
BCD3882D
3DAD76F2
BE1755E1
3DE3587E
3DA8DB8E
3D7AD239
BE71EE0A
BC539A87
BD77E9F7
3DDEEFFA
3E7AAA95
3D03F1D5
3DD55FCB
BAD9F4FE
BE188564
BBB18FB0
3CAD70B7
3E229C99
BD106CEA
BDAF3D5E
BDD51D5F
BC494CDB
3E9D5E2C
3CFE50D3
BE233252
BB5A0341
BE388D2B
3E57FD09
3DF91874
BCB590A6
3E0B30E8
BD67259E
3C9B5465
BE3088AF
3E209D0F
3E297D73
BE266348
BE168104
BDE7CD48
BD1066E3
BD4F8E15
3E365723
3DD8607D
BD66DB79
BE107340
BD14A5E2
BD664648
3BEE7350
3E72C6B8
BDA9CF4B
3D0E0D8A
BD45E92E
BD11F6B5
BDD365AF
BD841F1A
3D89F178
3CFD4BF6
BDF3D997
3E3209DD
BD9EDD21
BCE82A0B
3E049F13
3CE36494
3DD426B7
3E4E8F1B
BDAA2061
BC9D09B6
BD932516
BE680B77
3DF8EA7A
3E3AC8BD
BF6281E8
BC961A13
3D88807F
3E47BBBF
BD9F2255
BCB05406
BE77B7F4
BD71BFA8
3E76086B
BE0DDF4F
BE18D8AC
3AD7A5C4
3E515738
BE142458
BD82C3D5
39922FEE
3DACD6F1
3E4FDDEC
3CDFF904
BC4CFC93
3E15EC11
BE04612C
3DA39783
BE1B6A10
3DEE19E9
BDC93F0E
BD2D1496
BBD59736
BDCCCF34
BE12CD5B
3E0B984A
BE42EB4E
BDC54B74
BD573655
BD7BA791
3E7E1F99
BDAAF428
3DD633B6
BD9E0763
3D57876E
3CC64310
3DDE1B63
BDFDC217
3D43D842
3D23F79C
BC0B5615
3D990387
3D3E668B
3CC46433
3E4494BC
3D6F9BA7
BE1ACF06
3DD27BAA
BD6C2E97
3E208D43
BD633D92
3CF5197D
3E61360C
BC8B4294
3DEBECFA
BE0D86D2
BE2B2B6A
3E49B7C3
3D952E34
3CD6A8E4
3DC2F483
BDDBB710
BD77FCD1
BC6C122D
BD868E5E
3E75255E
3DDCA3F3
3D878057
BCF340FA
BC86D811
BE3D4522
3DF8E3CA
BBF1A6A1
B9CFB50A
BC34AE48
BDF43A0F
BD0D29BA
3D57A860
3D549C19
3D647E34
3D8C97D3
3C6DE7C5
3E0DB36D
BD9829A1
3F19CA59
3E1DA039
3E727A53
BC6C1EC2
BD947C5A
BE2E4471
BDC69829
3B006947
3DF6B970
3F82515A
BE5AD2AC
3E4245ED
3E0F02FA
3D354B0E
3D84445B
3D9BC8BF
BD8BE946
BD9068C7
BE161430
BC9C819B
BCCCCCB2
3E2ADC7E
BE133901
BD271429
BDB9C66D
BD0D3A86
3D7DD739
3C9F4250
3D277804
BE2CD2BA
BD480939
3DA5FB58
3D755798
3E285840
BDB09BD2
3DE73428
BDEFDB86
3DF1EC52
BDEB0D26
3D81E00C
3D3BC3B3
3E270D35
3E2BC9A9
3D5B8306
3DE086E4
BD717E60
BD4243EA
BDFD2018
3E477390
BE32C074
BCE9459F
BE3305F4
3DE2B68D
BA0FD74E
BE0707D2
3E5B4231
BE67AF12
BD25EA07
BE1085B6
BE04A7E8
BE044515
3D5FE982
3E3D427C
BD822CDF
3E1A9E0E
BE0A40AF
BDE500AE
BDB34EFD
3DB5ECAC
BE11395F
3E758F46
BE1F9CF6
3B1567B1
3DC9A4D9
3E3AB0E8
BD7F7E50
3C99C142
BF0288DE
3D79A941
3D714DD8
BCB7FC71
BE1FD96C
3D8B064F
3D6F107F
3E5A89C3
BCDD9C28
3E2E5C62
BD1A2786
BD09ECAE
3E4A0376
BE11FDA2
3CD70164
3DFB384E
3CEF2415
3D2DFA59
BE012C2E
BDB514E9
BE1BCA94
3D55456C
3DAAF828
3E0C55F2
3EB1BBD6
3D3B5066
BD93BEF2
3C66B1F0
3B2C2FF4
BDC1011A
3D8F4F38
3E0188E3
3DB83A9A
BE15DBCE
3F061C7C
3E51E8D8
3D01B7B3
BDC3754C
BD84B3AA
BC24ED35
3E12BE1C
BE00DC5B
BD42281E
BE9227C4
3CC6B048
BDC4B398
BDD62AE6
BE1F5BB6
3DB10A93
BDA34E5E
BD6FECD5
3E1E3D1A
BEAE700D
3DFC833E
BD9E3FB0
3D96001A
3E58733A
BC155511
BE186EE2
BE132D06
3CE418D4
3DAEDD42
3E0B1E08
BDAE69C0
BD8FC1F1
BDEE54F6
BE1D578C
BDFC64AF
3E5AFFAD
3E00FB94
BE4A6392
3D04197A
BE627F85
3DBA3754
3D8688EE
3DCD0567
3D81B296
3C82D898
3E697260
3E261DD2
3DF09570
3E8136E7
BE058D3C
3DFF8912
3D5B6E91
3D348876
3D4A12FE
3B9B9634
BE231C73
3E3866F8
BE455DEB
BE99C998
BE003FB5
BF0B22FC
3D9E2B3C
BD83E8FD
BCE78926
3E421565
3E0F2821
BCF03A0F
BD8C20A1
3C1012E8
BE0FBCAA
3D9AEFE7
3A945BED
3CF48F49
BD3615E4
BE19B856
BDD75AB7
3C8767BE
3E00BEDE
BE5F1426
BDAFFB96
3D2A5F09
3E28623D
3E10114F
3E4ADF52
3E035E0B
3D4A17C1
BE3559A9
3C83A6A3
3E2F40A2
BD5060BB
3DF6100B
BE2CA07F
BC1238D2
BDDB7775
3D85EC26
3B8E54C2
3E0CEC52
3D64BDBD
3DB99F28
BE2460EB
BDC7975A
3E2C965C
BE805CA5
BD240233
BDECF4A9
BCE5CBDC
3DCA0991
BE201122
3C6E4FB4
3E567138
3D3C37D4
BB916456
BD8190E4
BD121500
BD36DB66
BCA4F04A
BE6D2006
3D390D0F
BA3CB7AC
3E6911D5
BD37FE74
BD325034
BD0D14E1
3E0406C1
3DC2FB2F
BE1D3F15
3DAAA95B
BCBD55AC
BE0D5C33
3F3AAEC4
3C7A4ED1
3D784E38
BDBC36F1
BDA53DA2
3D9BDEA6
3B17D39C
3DD14518
BC1650C5
3DCCE300
BDD479CB
BDB251E9
3BDBD14D
3C16C57F
3D48648B
BE17597A
BDE61CF8
3BBBD89E
BDE5C518
BD97B606
3E5777E3
BD2C0300
BD9AD654
3D8F6E0C
BCEFADDD
3E3E5395
3DB63A1E
BE15DF44
BD521AB5
3DC4F2CC
3D1E0F1C
3E194B9C
3CC1D4A7
BE27D47C
BE211BB2
BD70D3AD
BDE1D818
BE143210
BDA08BC6
BD7E565D
BD368A91
3D3DEDD2
3E32A997
3E096C20
3C9E126A
BD8B5C62
BD18A8E1
BE5213B3
3C21988C
BC8C54C8
3DE8A248
BD811125
BE4B8208
BE05746B
3E034F0B
3D3FED79
3D4BF26F
3CB70260
3D43BD0E
3CD47568
BE01CF80
3DA5BC5A
3BB8B2B9
3C73B87F
3C98FCA1
3B8676FD
3E376F6B
BB037515
3D94F854
BE406A5F
BDDB4812
BD97D128
BD32D702
3D7CDD13
BD2C69F3
3C8E765B
BD34D91B
3E05A3BC
3F3E3E92
BE869F4C
3E7269CA
3E0B48B9
3DBF9A98
BD7574A9
3E5965B6
BE4FAAD7
3E481E1C
3DB1B385
BE31B550
3DBEACB6
BC0E6777
3CECA687
3CA0C30E
3CEEFC7D
BC7925A6
BE222930
3E0A7FC2
3DE5299D
BE7C9E56
BDA02748
BDD0F1C5
BCE858CF
BE5834FB
BC206342
3D47C7DD
BE42C8B4
BD95986A
BD2AF681
BE05CB39
BE038879
BE2642D0
3E578FEF
BCA919F5
3DD4F1A8
BCF330CA
3E3C3919
BE312AD1
3CC11EBE
BE3001B5
3E69775C
BD606D63
BC5E54E0
3E170A2E
BBBB0F76
BE2D20F6
3B136BD8
3D8CA95A
3E40E09E
BE44D2FA
3AFEE2F5
BD5914BF
3DA26241
3E423450
3E14BD23
BDF088EA
BDCB14FA
3E248280
3D92FFC6
3E67B1FC
BE899142
3DF36853
BD54E7C6
3C825118
3B832940
3E02E0FC
BE4CE436
BE272173
BD6547F9
BE33D898
3E4799B3
3D22B9A9
3D1E77E3
BC548A10
BE2B79E0
3B762BEC
3E212800
3D8C2260
BD1D644F
3D49F630
3DA70871
BE33AD59
3D87966D
BD9F096C
BE1F9108
BD67D603
3D06A95D
BD5AAA46
3E24C43F
BE359396
3BE41EA3
3DE6E2CB
3C7002F2
BE6856B8
390EC8DB
BDA5BB90
3E24F4B1
3DA6ED1A
BD26EEAF
3EEDACED
3DC7B18E
BE372959
BCA0695C
BCDA4190
BCCE4C79
BE2A9252
3DAFA670
3E17AF0B
3D7F3B37
3D7D828A
BE1377C1
BD8FD440
BD36A291
BDED2AB6
BD7FD4C2
3D526301
BE42CEB7
3D3E0C8E
BD9F89DA
BE987A6D
3E42A463
3D55A72C
3DEE0660
BDC401D2
BD9737AE
3C286B9A
3C9858DD
3DB1A561
3E0EE804
BCE439AB
BD5E3FD4
BE53E5AB
BDFC2D79
3DB1D498
BD25F212
BDC39856
BE2D64DF
BE29FF5F
3E7726B1
3CBD6F2C
BD54BB86
BE492EE0
BE038CC2
BD1EFFF0
BC974DAA
3E326CA7
BD6D865E
3BF8DE4E
3D35D1E4
3DE64EE0
3CCC1019
3E211811
BDEB119F
BD11F805
BE02E0CB
3D927874
BE5C5558
3C737F7F
3D05A1B8
3A833702
B95FB156
BD4BD0CE
3D0861B9
BD85AF7A
3CBF8150
3E2C9BAC
3E10459D
BB89D85B
3E361389
BD9803F5
BE12A0A2
BD9C99D4
3D0FD070
3D011A5C
BD9DC813
BDE83B18
BD9D73C8
BD53652A
BE32471B
3E251F77
3E4BD2E9
3E2EEAE3
BD1D4535
3E1FA981
3E5FBA40
3D6823A8
3E51A8C5
3E013310
BE0E2A88
3DFE5135
BDA0A00E
BD26DD54
3D659D59
3E960B23
BDD58D41
3E4CF7CE
3D0B1F10
3D649607
BD98AD8B
BE565F55
BE1FD070
3E6DBB91
3E0E5CE9
BCA0B105
3DDDDA8F
3E02BBBA
3D0C1428
BE9516C5
BDF5AF95
3DAC5A05
3D852898
3CE65061
BE120662
3E261E9E
BBB78919
BD6986D2
3E7F64E5
BE4C00BC
BE540B2B
BD4F9C7B
3DBDCD3D
3E7F3D87
BDEAA507
3E1BCBCD
BDCEC07E
3D01555A
3D824D32
BD2E2641
BE1A5EB2
3E03F55B
3E56A774
BE00CF79
BE071180
BE2045A7
3E77CCC1
BD8B0682
BE51A9B4
BC8A5C6A
BC7EEED3
3C48ACE2
3E079D4C
BE2C6D6E
3D95D568
3DB6D25D
BD89FA6A
BDBB4AC6
3E253D62
BCA16C9C
BD151749
BD075F7D
BD4C3296
3E3585C3
BD27B452
3E44E66F
BCCB58E4
BE5978D9
3C3F2E33
3E53EBC6
3C94C87A
BDB17A4A
3E2F64C8
BDCAC764
BE2ADEC4
BD71B8B2
3DB00E1A
3E749BAE
BDCF4575
3DD089FE
BDDBB022
BDEE0C94
3D9F888F
BC1B317F
BD927183
BDEE32BF
3D79F399
BD90888C
BE470051
3C1E85B2
BD58A19A
3E81042A
3D1D9064
BEC4FFCF
BCEBC1CA
BCD205B7
BE1BD434
3CEF9834
BE259587
BE28FD32
3E334B13
3E2AA0D8
3AED575C
BE8D7451
3C2AFE86
BC8E2E3C
BD336814
3D200952
3D5B1542
3BBE7607
BDD60CCE
3E3514AC
BE03D0D5
BE06EA44
3EC9DA05
BE1171E8
3C446FFC
BD9FDC7F
BC1315FD
3E103F54
BE61FC5A
3A93FF51
3DC6A80C
3DBB6EC6
BE11B87E
3E12695C
BDD4FAC8
3E2097AC
3CC58B90
BCFE71F1
3CC86B19
BD39FE9C
3E595377
3DA95F85
3D4B848E
3D61B339
BE5AB8A2
3E192456
BE1C5307
BDB5C1AA
BE0E957A
3E02BC50
3D0AB0D1
3DDC1683
BD37DACB
BC7AB97A
BDF1BC6B
BD19B0F6
3CD43653
BD90762E
3D57A289
3C51683D
3E205555
3E006878
BCCBC98D
BE2027C7
3DCAB8BB
3D950AF3
BCDA0AAE
3E6E8E4F
BD294EE9
BE3BDDA2
BE305ABC
3F5E2C10
3E5BAA94
BDBEDA42
BBFF254F
3E5522FA
BE285277
BE282982
3DBA51C8
BDAB17D6
BD98CE4D
3DC177E6
BCA20650
BE67C350
3D601046
BE2131A3
BD8FA635
3E57084F
BE3140C6
3CE9B439
3AED9FD6
3D1A55DA
3E0C75EA
3DE44279
3C72644C
3DD71F9D
3E1F70CF
3E6F2681
BDE4DA87
3DA8477E
3DE15D31
BE3F89D8
BC71158C
BDCAC342
3CF472B9
3DF426DC
3E7A2969
BDAE39C6
3D825E72
3E0D02BA
3E1EE096
3E490CE2
3DF896E8
BDBD0538
BE45CD81
3C2E081B
BE43B771
BE095698
BDCCEB09
BD212CEC
3DAD16C0
BDA3FB98
BCDCFC3A
3DB05EBA
BDAD4604
BD077418
3C4B3512
BDF03967
BE1EF632
BE0664BA
3CCFE6FE
BE16128A
3D346941
3BFDF360
3D6A32F7
BDB73349
BD72B07F
3DB36670
BD46E5E5
BDB908C3
BE5B3F0E
3D8A2FB1
BD92AE15
BD6A9522
3D97B438
BD808CFE
BE12D7C2
BE38CF7E
BD62B27D
BE1F179C
3CA7F8D3
3DB24F57
3DD21E99
3D2144D4
BB065B4E
BDD8B048
3D5BECDE
BCC76C86
3E10EBAE
3E276400
BDEED97D
3D6D4515
BDB6D0AE
3DF8B684
BE5BB96C
BE690838
BDF09B67
BD5519AD
BDBD05DA
3D813F31
BE06C4B4
3D40EDBC
3F63980C
3E20DE67
BD350A51
BD8DBE3C
BE07D51E
BE630E3D
3A48E186
BD03C1F4
BE29DD58
BDEABC32
3DD1A841
BE0FEB8D
3D47ECDC
BD3B39B5
3DB59BAE
3D63B1CE
BE6ABD02
BD5C2DFC
BD93C2E6
BDD9F349
3E0C5C3D
3D3577C4
BE16AE0F
BDBC797A
3D92B53C
3E0144F6
3E2C4DCD
BD2A4099
3DD76606
BE599C00
BCF04319
3BC223A6
3D32651D
BCDAAD40
BDE839EA
3B85D4D6
BE3A78C5
3E1DC205
3E2371B4
BDFBDAF1
3C15F70D
BE51EB95
BE0C951E
BD7BC63D
B856F545
3D9AFEA9
BDE423DF
3D0046E8
3DBAB73F
3DB79089
BE01965B
BDEEA324
3DFEF3CD
3E1A4C26
BD3B36BD
BDF94635
3D7E74AA
3E021B5E
3E39C4FD
BD134FBE
3D7A7780
BD48CF44
BDBA0120
3E0B5A7E
BB7BD2CA
3DDC0A76
3D2F91C3
3C37F4CE
BE1FD310
BB87A9AD
BD33960A
3D27032C
3E4EF966
BE637516
BC740B8B
BD7C36F8
BE34FB73
3CDF745F
BE131AAF
BCC367FF
3DCEB0D5
BCFF6C87
3E678A27
3C0B060E
BE280C46
BE807782
3D935C99
BDAAA79E
BCA15AEF
BE3BBF70
BD2D1854
BD0798D3

