3E3C016C
3E61EC5E
BD17B231
BBBFEA10
3BB8DAD2
BE02FD9A
3E32D6C5
3E80F7D4
BDF1C4EB
BD8D8CE9
3DA8DB8E
3E7AAA95
3CAD70B7
3E9D5E2C
3DF91874
3E209D0F
BD4F8E15
BD664648
BD11F6B5
3E3209DD
BDB9C66D
BD480939
BDEFDB86
3E2BC9A9
3E477390
BE0707D2
BE044515
BDE500AE
3B1567B1
3D79A941
3E5A89C3
BE11FDA2
BDB514E9
3D3B5066
3E0188E3
BDC3754C
BE9227C4
BDA34E5E
3D96001A
3DAEDD42
3E3E5395
3E194B9C
BE143210
3E096C20
BC8C54C8
3D3FED79
3DA5BC5A
BB037515
3D7CDD13
BE869F4C
BE4FAAD7
3CECA687
3DE5299D
BC206342
BE038879
3E3C3919
BC5E54E0
3E40E09E
3E14BD23
BE899142
3E51A8C5
3D659D59
BD98AD8B
3DDDDA8F
3D852898
3E7F64E5
BDEAA507
BE1A5EB2
3E77CCC1
3E079D4C
3E253D62
BD27B452
3C94C87A
3DB00E1A
3D9F888F
BE470051
BCEBC1CA
3E334B13
BD336814
BE03D0D5
BE12D7C2
3DD21E99
3E10EBAE
BE5BB96C
BE06C4B4
BE07D51E
3DD1A841
BE6ABD02
BE16AE0F
3DD76606
BDE839EA
3C15F70D
BDE423DF
3DFEF3CD
3E39C4FD
BB7BD2CA
BD33960A
BE34FB73
3E678A27
BCA15AEF

