3E4B1823
3D5621D3
BD16D8F8
BDAE476A
BD3D6AEA
3C9CD523
BB146C5E
3D8994BD
BE2F164D
BDED191E
3D7AD239
3D03F1D5
3E229C99
3CFE50D3
BCB590A6
3E297D73
3E365723
3BEE7350
BDD365AF
BD9EDD21
BD0D3A86
3DA5FB58
3DF1EC52
3D5B8306
BE32C074
3E5B4231
3D5FE982
BDB34EFD
3DC9A4D9
3D714DD8
BCDD9C28
3CD70164
BE1BCA94
BD93BEF2
3DB83A9A
BD84B3AA
3CC6B048
BD6FECD5
3E58733A
3E0B1E08
3DB63A1E
3CC1D4A7
BDA08BC6
3C9E126A
3DE8A248
3D4BF26F
3BB8B2B9
3D94F854
BD2C69F3
3E7269CA
3E481E1C
3CA0C30E
BE7C9E56
3D47C7DD
BE2642D0
BE312AD1
3E170A2E
BE44D2FA
BDF088EA
3DF36853
3E013310
3E960B23
BE565F55
3E02BBBA
3CE65061
BE4C00BC
3E1BCBCD
3E03F55B
BD8B0682
BE2C6D6E
BCA16C9C
3E44E66F
BDB17A4A
3E749BAE
BC1B317F
3C1E85B2
BCD205B7
3E2AA0D8
3D200952
BE06EA44
BE38CF7E
3D2144D4
3E276400
BE690838
3D40EDBC
BE630E3D
BE0FEB8D
BD5C2DFC
BDBC797A
BE599C00
3B85D4D6
BE51EB95
3D0046E8
3E1A4C26
BD134FBE
3DDC0A76
3D27032C
3CDF745F
3C0B060E
BE3BBF70

