BE2EDCB4
3E419194
3E0F5C33
3DBBF672
BDE823A9
3DC8585D
3E058842
3D28B9FE
3D8CA202
3CB051D7
BD9A695F
BDB5EFC4
3E31788E
BD811A1C
BDB3B1B9
3D7B682E
BD14955E
BE5952BE
3AFBF707
3E24CDDF
3DD426B7
3DF8EA7A
BD9F2255
BE18D8AC
3DACD6F1
3DA39783
BDCCCF34
BD7BA791
3CC64310
3D990387
3DD27BAA
BC8B4294
3CD6A8E4
3E75255E
3DF8E3CA
3D57A860
BD9829A1
BE2E4471
3E4245ED
BD9068C7
BE1D578C
BE627F85
3E697260
3D5B6E91
BE455DEB
BCE78926
BE0FBCAA
BDD75AB7
3E28623D
3C83A6A3
BDDB7775
BE2460EB
BCE5CBDC
BB916456
3D390D0F
3E0406C1
3F3AAEC4
3B17D39C
3BDBD14D
BDE5C518
3E02E0FC
3D22B9A9
3D8C2260
BD9F096C
BE359396
BDA5BB90
BE372959
3E17AF0B
BDED2AB6
BE987A6D
3C286B9A
BE53E5AB
BE29FF5F
BD1EFFF0
3DE64EE0
3D927874
BD4BD0CE
BB89D85B
3D011A5C
3E251F77
BD9FDC7F
3DBB6EC6
BCFE71F1
3D61B339
3E02BC50
BD19B0F6
3E006878
3E6E8E4F
BDBEDA42
BDAB17D6
BE2131A3
3D1A55DA
3E6F2681
BDCAC342
3E0D02BA
3C2E081B
BDA3FB98
BDF03967
3BFDF360
BDB908C3

