3D7DAE57
3E77F095
3DD35AAC
3E20E13A
BCFD8C5D
BDFAA8A5
BE5B4970
3E4BF8A0
BE0A5629
BD4A2C16
3E5148FC
BD283945
BE7261B4
3D457159
3D8BAD5C
BE1E3A5C
3DA699D8
BD7F4D02
BE408C6C
BC858235
BC9D09B6
BC961A13
BD71BFA8
BE142458
BC4CFC93
BDC93F0E
BE42EB4E
3DD633B6
3D43D842
3E4494BC
BD633D92
BE2B2B6A
BD77FCD1
BCF340FA
BC34AE48
3D8C97D3
3E727A53
3DF6B970
3D84445B
BCCCCCB2
3E00FB94
3DCD0567
3E8136E7
3B9B9634
BF0B22FC
BCF03A0F
3CF48F49
BE5F1426
3E035E0B
3DF6100B
3E0CEC52
BE805CA5
3C6E4FB4
BD36DB66
BD37FE74
3DAAA95B
BDBC36F1
3DCCE300
BE17597A
BD2C0300
BD6547F9
BE2B79E0
3DA70871
3D06A95D
3C7002F2
BD26EEAF
BCCE4C79
BE1377C1
BE42CEB7
3DEE0660
3E0EE804
BD25F212
BD54BB86
BD6D865E
BDEB119F
3D05A1B8
3CBF8150
BE12A0A2
BD9D73C8
BD1D4535
BE61FC5A
BDD4FAC8
3E595377
BE1C5307
BD37DACB
3D57A289
3DCAB8BB
BE305ABC
BE285277
BCA20650
BE3140C6
3C72644C
3DE15D31
3E7A2969
3DF896E8
BDCCEB09
BDAD4604
3CCFE6FE
BD72B07F
BD92AE15

