3D64F68F
3E4DD551
BE0C6CC1
BDC2751F
3E068631
3DBD1AD0
BBEA145B
3D9049C0
BDB1AED8
3D21C7BE
3DE3587E
3DDEEFFA
BBB18FB0
BC494CDB
3E57FD09
BE3088AF
BD1066E3
BD14A5E2
BD45E92E
BDF3D997
BD271429
BE2CD2BA
3DE73428
3E270D35
BDFD2018
BA0FD74E
BE04A7E8
BE0A40AF
BE1F9CF6
BF0288DE
3D6F107F
3E4A0376
BE012C2E
3EB1BBD6
3D8F4F38
3D01B7B3
BD42281E
3DB10A93
BD9E3FB0
3CE418D4
BCEFADDD
3D1E0F1C
BDE1D818
3E32A997
3C21988C
3E034F0B
BE01CF80
3E376F6B
BD32D702
3F3E3E92
3E5965B6
BC0E6777
3E0A7FC2
BE5834FB
BE05CB39
BCF330CA
BD606D63
3D8CA95A
3E423450
3E67B1FC
3D6823A8
BD26DD54
3D649607
BCA0B105
3DAC5A05
BD6986D2
3E7F3D87
BD2E2641
BE2045A7
3C48ACE2
BDBB4AC6
3E3585C3
3E53EBC6
BD71B8B2
BDEE0C94
BD90888C
BEC4FFCF
BE28FD32
BC8E2E3C
3E3514AC
BD808CFE
3DB24F57
BCC76C86
3DF8B684
3D813F31
BD8DBE3C
BDEABC32
3D63B1CE
3D3577C4
BD2A4099
BCDAAD40
BDFBDAF1
3D9AFEA9
BDEEA324
3E021B5E
3E0B5A7E
BB87A9AD
BD7C36F8
BCFF6C87
BDAAA79E

