3CE1BE61
BE1159ED
3E0BA801
BD5578FB
3E00E792
BDC5111D
BB957674
BDDCA9C3
BAFA615B
BE2A280F
BD027779
BDA99C32
BD82F82C
BDB15365
BCC98153
BDEE4BAD
BE074CD3
BD89E487
3DFF2E83
3D886D2D
BD932516
3D88807F
3E76086B
BD82C3D5
3E15EC11
BD2D1496
BDC54B74
BD9E0763
3D23F79C
3D6F9BA7
3CF5197D
3E49B7C3
BC6C122D
BC86D811
BDF43A0F
3C6DE7C5
BC6C1EC2
3F82515A
3D9BC8BF
3E2ADC7E
BE4A6392
3D81B296
BE058D3C
BE231C73
3D9E2B3C
BD8C20A1
BD3615E4
BDAFFB96
3D4A17C1
BE2CA07F
3D64BDBD
BD240233
3E567138
BCA4F04A
BD325034
BCBD55AC
BDA53DA2
BDD479CB
BDE61CF8
BD9AD654
BE33D898
3B762BEC
BE33AD59
BD5AAA46
BE6856B8
3EEDACED
BE2A9252
BD8FD440
3D3E0C8E
BDC401D2
BCE439AB
BDC39856
BE492EE0
3BF8DE4E
BD11F805
3A833702
3E2C9BAC
BD9C99D4
BD53652A
3E1FA981
3A93FF51
3E2097AC
3DA95F85
BDB5C1AA
BC7AB97A
3C51683D
3D950AF3
3F5E2C10
BE282982
BE67C350
3CE9B439
3DD71F9D
BE3F89D8
BDAE39C6
BDBD0538
BD212CEC
BD077418
BE16128A
3DB36670
BD6A9522

