3E55C0D1
BDB47AF8
BDCF6800
3F5521DC
BE25C036
BDAD1AF6
3E484180
BD8519A8
3E3426B5
3DAD76F2
BC539A87
BAD9F4FE
BDAF3D5E
BB5A0341
BD67259E
BE168104
BD66DB79
BDA9CF4B
3D89F178
3E049F13
3C9F4250
3E285840
3D81E00C
BD717E60
BE3305F4
BD25EA07
BD822CDF
BE11395F
BD7F7E50
BE1FD96C
BD1A2786
3CEF2415
3DAAF828
3B2C2FF4
3F061C7C
3E12BE1C
BDD62AE6
BEAE700D
BE186EE2
BD8FC1F1
BD521AB5
BE211BB2
BD368A91
BD18A8E1
BE4B8208
3D43BD0E
3C98FCA1
BDDB4812
BD34D91B
3DBF9A98
BE31B550
BC7925A6
BDD0F1C5
BD95986A
BCA919F5
BE3001B5
BE2D20F6
BD5914BF
3E248280
3C825118
3DFE5135
3E4CF7CE
3E6DBB91
BE9516C5
3E261E9E
BD4F9C7B
3D01555A
BE00CF79
BC8A5C6A
3DB6D25D
BD075F7D
BE5978D9
BDCAC764
3DD089FE
BDEE32BF
3E81042A
3CEF9834
BE8D7451
3BBE7607
BE1171E8
BE1F179C
BDD8B048
3D6D4515
BD5519AD
3E20DE67
BD03C1F4
BD3B39B5
BDD9F349
3E0144F6
3BC223A6
3E1DC205
BD7BC63D
3DB79089
BDF94635
BD48CF44
3C37F4CE
BE637516
BCC367FF
BE807782
BD0798D3

