BC96826E
3E152837
BE0CFCBD
3CEFBB6A
3DCA26C6
3E0D1A96
3CEEBCA7
BE2D9D5D
BE308A5B
3D2574CC
BE1755E1
BD77E9F7
BE188564
BDD51D5F
BE388D2B
3C9B5465
BDE7CD48
BE107340
3D0E0D8A
3CFD4BF6
BE133901
3D277804
BDB09BD2
3D3BC3B3
BD4243EA
3DE2B68D
BE1085B6
3E1A9E0E
3E758F46
3C99C142
3D8B064F
BD09ECAE
3D2DFA59
3E0C55F2
BDC1011A
3E51E8D8
BE00DC5B
BE1F5BB6
3DFC833E
BE132D06
3D8F6E0C
3DC4F2CC
BD70D3AD
3D3DEDD2
BE5213B3
BE05746B
3CD47568
3B8676FD
BD97D128
3E05A3BC
BD7574A9
3DBEACB6
BE222930
BCE858CF
BD2AF681
3DD4F1A8
3E69775C
3B136BD8
3DA26241
3D92FFC6
3E5FBA40
BDA0A00E
3D0B1F10
3E0E5CE9
BDF5AF95
BBB78919
3DBDCD3D
3D824D32
BE071180
BC7EEED3
BD89FA6A
BD4C3296
3C3F2E33
BE2ADEC4
BDDBB022
3D79F399
3D1D9064
BE259587
3C2AFE86
BDD60CCE
3D97B438
3CA7F8D3
3D5BECDE
BDB6D0AE
BDBD05DA
BD350A51
BE29DD58
3DB59BAE
3E0C5C3D
3E2C4DCD
3D32651D
3E2371B4
B856F545
BE01965B
3D7E74AA
BDBA0120
BE1FD310
BC740B8B
3DCEB0D5
3D935C99

