BDD089BF
BDCDD139
3E354080
BDF3F9E0
BD1522E5
BE2DACEB
3DC0F517
3E33CE07
3E1B3BC7
BCD3882D
BE71EE0A
3DD55FCB
BD106CEA
BE233252
3E0B30E8
BE266348
3DD8607D
3E72C6B8
BD841F1A
BCE82A0B
3D7DD739
3D755798
BDEB0D26
3DE086E4
BCE9459F
BE67AF12
3E3D427C
3DB5ECAC
3E3AB0E8
BCB7FC71
3E2E5C62
3DFB384E
3D55456C
3C66B1F0
BE15DBCE
BC24ED35
BDC4B398
3E1E3D1A
BC155511
BDAE69C0
BE15DF44
BE27D47C
BD7E565D
BD8B5C62
BD811125
3CB70260
3C73B87F
BE406A5F
3C8E765B
3E0B48B9
3DB1B385
3CEEFC7D
BDA02748
BE42C8B4
3E578FEF
3CC11EBE
BBBB0F76
3AFEE2F5
BDCB14FA
BD54E7C6
BE0E2A88
BDD58D41
BE1FD070
3D0C1428
BE120662
BE540B2B
BDCEC07E
3E56A774
BE51A9B4
3D95D568
BD151749
BCCB58E4
3E2F64C8
BDCF4575
BD927183
BD58A19A
BE1BD434
3AED575C
3D5B1542
3EC9DA05
BD62B27D
BB065B4E
BDEED97D
BDF09B67
3F63980C
3A48E186
3D47ECDC
BD93C2E6
3D92B53C
BCF04319
BE3A78C5
BE0C951E
3DBAB73F
BD3B36BD
3D7A7780
3D2F91C3
3E4EF966
BE131AAF
BE280C46
BD2D1854

