3E2EFC66
BD0E7B00
BD917BDD
BD99C6EF
BE2A1F0E
BCCF1074
3E6B9B40
3D60A0B7
3DD2C946
3E3D332E
BC8DDADF
BD6438D2
BE22A868
3DD62B96
3ECB0526
BDD248D4
3E1781E4
3C8A90FE
3C6576D2
3B80AA1F
3CE36494
BE680B77
3E47BBBF
BE0DDF4F
39922FEE
BE04612C
BBD59736
BD573655
3D57876E
BC0B5615
BE1ACF06
3E61360C
3D952E34
BD868E5E
BE3D4522
BD0D29BA
3E0DB36D
BD947C5A
BE5AD2AC
BD8BE946
BDEE54F6
3D04197A
3C82D898
3DFF8912
3E3866F8
BD83E8FD
3C1012E8
BE19B856
3D2A5F09
BE3559A9
BC1238D2
3DB99F28
BDECF4A9
3D3C37D4
BE6D2006
BD0D14E1
BE0D5C33
3D9BDEA6
BDB251E9
3BBBD89E
3B832940
3E4799B3
3E212800
3D87966D
3E24C43F
390EC8DB
3DC7B18E
3DAFA670
BD36A291
BD9F89DA
BD9737AE
BD5E3FD4
BE2D64DF
BE038CC2
3D35D1E4
BE02E0CB
B95FB156
3E10459D
3D0FD070
BE32471B
3C446FFC
3DC6A80C
3CC58B90
3D4B848E
BE0E957A
BDF1BC6B
3E205555
BCDA0AAE
3E5BAA94
3DBA51C8
3D601046
3AED9FD6
3E1F70CF
BC71158C
3D825E72
BE45CD81
3DAD16C0
3C4B3512
3D346941
BD46E5E5

